const unsigned char g_model[] = { 32, 0, 0, 0, 84, 70, 76, 51, 0, 0, 0, 0, 20, 0, 32, 0, 28, 0, 24, 0, 20, 0, 16, 0, 12, 0, 0, 0, 8, 0, 4, 0, 20, 0, 0, 0, 28, 0, 0, 0, 140, 0, 0, 0, 228, 0, 0, 0, 184, 3, 0, 0, 200, 3, 0, 0, 228, 13, 0, 0, 3, 0, 0, 0, 1, 0, 0, 0, 4, 0, 0, 0, 246, 251, 255, 255, 12, 0, 0, 0, 28, 0, 0, 0, 60, 0, 0, 0, 15, 0, 0, 0, 115, 101, 114, 118, 105, 110, 103, 95, 100, 101, 102, 97, 117, 108, 116, 0, 1, 0, 0, 0, 4, 0, 0, 0, 144, 255, 255, 255, 11, 0, 0, 0, 4, 0, 0, 0, 8, 0, 0, 0, 111, 117, 116, 112, 117, 116, 95, 48, 0, 0, 0, 0, 1, 0, 0, 0, 4, 0, 0, 0, 206, 252, 255, 255, 4, 0, 0, 0, 12, 0, 0, 0, 107, 101, 114, 97, 115, 95, 116, 101, 110, 115, 111, 114, 0, 0, 0, 0, 2, 0, 0, 0, 52, 0, 0, 0, 4, 0, 0, 0, 220, 255, 255, 255, 14, 0, 0, 0, 4, 0, 0, 0, 19, 0, 0, 0, 67, 79, 78, 86, 69, 82, 83, 73, 79, 78, 95, 77, 69, 84, 65, 68, 65, 84, 65, 0, 8, 0, 12, 0, 8, 0, 4, 0, 8, 0, 0, 0, 13, 0, 0, 0, 4, 0, 0, 0, 19, 0, 0, 0, 109, 105, 110, 95, 114, 117, 110, 116, 105, 109, 101, 95, 118, 101, 114, 115, 105, 111, 110, 0, 15, 0, 0, 0, 208, 2, 0, 0, 200, 2, 0, 0, 180, 2, 0, 0, 140, 2, 0, 0, 60, 2, 0, 0, 44, 1, 0, 0, 220, 0, 0, 0, 188, 0, 0, 0, 180, 0, 0, 0, 172, 0, 0, 0, 164, 0, 0, 0, 156, 0, 0, 0, 148, 0, 0, 0, 116, 0, 0, 0, 4, 0, 0, 0, 134, 253, 255, 255, 4, 0, 0, 0, 96, 0, 0, 0, 12, 0, 0, 0, 8, 0, 14, 0, 8, 0, 4, 0, 8, 0, 0, 0, 16, 0, 0, 0, 40, 0, 0, 0, 0, 0, 6, 0, 8, 0, 4, 0, 6, 0, 0, 0, 4, 0, 0, 0, 1, 0, 0, 0, 235, 3, 0, 0, 12, 0, 24, 0, 20, 0, 16, 0, 12, 0, 4, 0, 12, 0, 0, 0, 239, 54, 115, 201, 78, 126, 73, 250, 1, 0, 0, 0, 2, 0, 0, 0, 4, 0, 0, 0, 6, 0, 0, 0, 50, 46, 50, 48, 46, 48, 0, 0, 242, 253, 255, 255, 4, 0, 0, 0, 16, 0, 0, 0, 49, 46, 49, 52, 46, 48, 0, 0, 0, 0, 0, 0, 0, 0, 0, 0, 244, 243, 255, 255, 248, 243, 255, 255, 252, 243, 255, 255, 0, 244, 255, 255, 4, 244, 255, 255, 34, 254, 255, 255, 4, 0, 0, 0, 16, 0, 0, 0, 129, 127, 127, 129, 129, 129, 129, 129, 127, 127, 129, 127, 127, 129, 129, 129, 62, 254, 255, 255, 4, 0, 0, 0, 64, 0, 0, 0, 129, 225, 0, 0, 59, 10, 0, 0, 95, 254, 255, 255, 0, 0, 0, 0, 0, 0, 0, 0, 0, 0, 0, 0, 0, 0, 0, 0, 0, 0, 0, 0, 93, 0, 0, 0, 72, 232, 255, 255, 0, 0, 0, 0, 78, 4, 0, 0, 233, 235, 255, 255, 0, 0, 0, 0, 0, 0, 0, 0, 0, 0, 0, 0, 138, 254, 255, 255, 4, 0, 0, 0, 0, 1, 0, 0, 127, 7, 233, 36, 31, 25, 222, 207, 224, 168, 73, 84, 190, 42, 184, 14, 224, 24, 85, 244, 206, 136, 159, 143, 135, 145, 127, 199, 105, 70, 202, 210, 127, 2, 104, 27, 225, 158, 52, 108, 235, 15, 84, 211, 253, 40, 176, 117, 105, 11, 54, 178, 62, 37, 59, 5, 75, 134, 90, 231, 129, 201, 41, 20, 127, 80, 234, 205, 11, 198, 52, 73, 231, 180, 76, 56, 29, 243, 17, 9, 127, 248, 189, 11, 74, 68, 63, 33, 78, 21, 4, 252, 11, 36, 45, 71, 129, 225, 1, 50, 202, 173, 204, 46, 252, 78, 206, 4, 101, 174, 217, 168, 203, 242, 35, 86, 57, 71, 78, 114, 216, 8, 181, 188, 252, 33, 127, 143, 10, 244, 67, 82, 181, 55, 183, 218, 50, 129, 22, 8, 159, 222, 64, 91, 127, 245, 68, 84, 57, 215, 2, 180, 214, 154, 223, 134, 187, 184, 2, 11, 45, 246, 62, 51, 44, 46, 43, 196, 216, 151, 234, 167, 129, 40, 215, 1, 16, 28, 129, 62, 211, 194, 147, 87, 116, 208, 67, 196, 40, 42, 179, 209, 65, 129, 174, 108, 149, 208, 248, 75, 186, 74, 138, 174, 215, 119, 210, 161, 8, 187, 176, 176, 67, 238, 34, 92, 177, 108, 11, 164, 210, 0, 23, 129, 129, 75, 89, 191, 158, 151, 18, 151, 93, 177, 95, 71, 200, 6, 99, 4, 131, 76, 170, 225, 181, 248, 152, 24, 223, 155, 129, 64, 129, 210, 29, 146, 150, 255, 255, 255, 4, 0, 0, 0, 64, 0, 0, 0, 57, 29, 0, 0, 231, 252, 255, 255, 150, 15, 0, 0, 38, 20, 0, 0, 157, 10, 0, 0, 209, 10, 0, 0, 207, 216, 255, 255, 96, 25, 0, 0, 30, 20, 0, 0, 80, 24, 0, 0, 47, 19, 0, 0, 144, 248, 255, 255, 10, 3, 0, 0, 0, 0, 0, 0, 28, 228, 255, 255, 138, 254, 255, 255, 226, 255, 255, 255, 4, 0, 0, 0, 16, 0, 0, 0, 110, 13, 244, 125, 193, 228, 127, 241, 85, 192, 179, 16, 222, 230, 38, 36, 0, 0, 6, 0, 8, 0, 4, 0, 6, 0, 0, 0, 4, 0, 0, 0, 4, 0, 0, 0, 135, 239, 255, 255, 252, 245, 255, 255, 0, 246, 255, 255, 15, 0, 0, 0, 77, 76, 73, 82, 32, 67, 111, 110, 118, 101, 114, 116, 101, 100, 46, 0, 1, 0, 0, 0, 20, 0, 0, 0, 0, 0, 14, 0, 24, 0, 20, 0, 16, 0, 12, 0, 8, 0, 4, 0, 14, 0, 0, 0, 20, 0, 0, 0, 28, 0, 0, 0, 64, 1, 0, 0, 68, 1, 0, 0, 72, 1, 0, 0, 4, 0, 0, 0, 109, 97, 105, 110, 0, 0, 0, 0, 5, 0, 0, 0, 8, 1, 0, 0, 184, 0, 0, 0, 108, 0, 0, 0, 52, 0, 0, 0, 16, 0, 0, 0, 0, 0, 10, 0, 16, 0, 12, 0, 8, 0, 4, 0, 10, 0, 0, 0, 12, 0, 0, 0, 16, 0, 0, 0, 2, 0, 0, 0, 1, 0, 0, 0, 11, 0, 0, 0, 1, 0, 0, 0, 10, 0, 0, 0, 146, 255, 255, 255, 20, 0, 0, 0, 0, 0, 0, 8, 16, 0, 0, 0, 20, 0, 0, 0, 1, 0, 0, 0, 176, 246, 255, 255, 1, 0, 0, 0, 10, 0, 0, 0, 3, 0, 0, 0, 9, 0, 0, 0, 2, 0, 0, 0, 1, 0, 0, 0, 198, 255, 255, 255, 20, 0, 0, 0, 0, 0, 0, 8, 20, 0, 0, 0, 24, 0, 0, 0, 1, 0, 0, 0, 182, 255, 255, 255, 0, 0, 0, 1, 1, 0, 0, 0, 9, 0, 0, 0, 3, 0, 0, 0, 8, 0, 0, 0, 4, 0, 0, 0, 3, 0, 0, 0, 0, 0, 14, 0, 26, 0, 20, 0, 16, 0, 12, 0, 11, 0, 4, 0, 14, 0, 0, 0, 28, 0, 0, 0, 0, 0, 0, 8, 28, 0, 0, 0, 32, 0, 0, 0, 1, 0, 0, 0, 0, 0, 6, 0, 8, 0, 7, 0, 6, 0, 0, 0, 0, 0, 0, 1, 1, 0, 0, 0, 8, 0, 0, 0, 3, 0, 0, 0, 7, 0, 0, 0, 6, 0, 0, 0, 5, 0, 0, 0, 0, 0, 10, 0, 12, 0, 0, 0, 8, 0, 4, 0, 10, 0, 0, 0, 8, 0, 0, 0, 12, 0, 0, 0, 1, 0, 0, 0, 7, 0, 0, 0, 1, 0, 0, 0, 0, 0, 0, 0, 1, 0, 0, 0, 11, 0, 0, 0, 1, 0, 0, 0, 0, 0, 0, 0, 12, 0, 0, 0, 72, 8, 0, 0, 192, 7, 0, 0, 64, 7, 0, 0, 44, 6, 0, 0, 16, 5, 0, 0, 252, 3, 0, 0, 224, 2, 0, 0, 108, 2, 0, 0, 160, 1, 0, 0, 228, 0, 0, 0, 96, 0, 0, 0, 4, 0, 0, 0, 254, 247, 255, 255, 0, 0, 0, 1, 20, 0, 0, 0, 28, 0, 0, 0, 28, 0, 0, 0, 12, 0, 0, 0, 52, 0, 0, 0, 2, 0, 0, 0, 255, 255, 255, 255, 1, 0, 0, 0, 232, 247, 255, 255, 27, 0, 0, 0, 83, 116, 97, 116, 101, 102, 117, 108, 80, 97, 114, 116, 105, 116, 105, 111, 110, 101, 100, 67, 97, 108, 108, 95, 49, 58, 48, 0, 2, 0, 0, 0, 1, 0, 0, 0, 1, 0, 0, 0, 22, 254, 255, 255, 0, 0, 0, 1, 24, 0, 0, 0, 32, 0, 0, 0, 64, 0, 0, 0, 11, 0, 0, 0, 0, 0, 0, 9, 88, 0, 0, 0, 2, 0, 0, 0, 255, 255, 255, 255, 1, 0, 0, 0, 212, 248, 255, 255, 8, 0, 0, 0, 20, 0, 0, 0, 1, 0, 0, 0, 247, 255, 255, 255, 255, 255, 255, 255, 0, 0, 0, 0, 1, 0, 0, 0, 220, 53, 7, 60, 28, 0, 0, 0, 83, 116, 97, 116, 101, 102, 117, 108, 80, 97, 114, 116, 105, 116, 105, 111, 110, 101, 100, 67, 97, 108, 108, 95, 49, 58, 48, 49, 0, 0, 0, 0, 2, 0, 0, 0, 1, 0, 0, 0, 1, 0, 0, 0, 150, 254, 255, 255, 0, 0, 0, 1, 24, 0, 0, 0, 32, 0, 0, 0, 60, 0, 0, 0, 10, 0, 0, 0, 0, 0, 0, 9, 144, 0, 0, 0, 2, 0, 0, 0, 255, 255, 255, 255, 16, 0, 0, 0, 84, 249, 255, 255, 8, 0, 0, 0, 16, 0, 0, 0, 1, 0, 0, 0, 128, 255, 255, 255, 255, 255, 255, 255, 1, 0, 0, 0, 239, 61, 241, 59, 88, 0, 0, 0, 115, 101, 113, 117, 101, 110, 116, 105, 97, 108, 95, 49, 47, 100, 101, 110, 115, 101, 95, 49, 95, 50, 47, 77, 97, 116, 77, 117, 108, 59, 115, 101, 113, 117, 101, 110, 116, 105, 97, 108, 95, 49, 47, 100, 101, 110, 115, 101, 95, 49, 95, 50, 47, 82, 101, 108, 117, 59, 115, 101, 113, 117, 101, 110, 116, 105, 97, 108, 95, 49, 47, 100, 101, 110, 115, 101, 95, 49, 95, 50, 47, 66, 105, 97, 115, 65, 100, 100, 0, 0, 0, 0, 2, 0, 0, 0, 1, 0, 0, 0, 16, 0, 0, 0, 78, 255, 255, 255, 0, 0, 0, 1, 24, 0, 0, 0, 32, 0, 0, 0, 60, 0, 0, 0, 9, 0, 0, 0, 0, 0, 0, 9, 136, 0, 0, 0, 2, 0, 0, 0, 255, 255, 255, 255, 16, 0, 0, 0, 12, 250, 255, 255, 8, 0, 0, 0, 16, 0, 0, 0, 1, 0, 0, 0, 128, 255, 255, 255, 255, 255, 255, 255, 1, 0, 0, 0, 115, 153, 85, 60, 82, 0, 0, 0, 115, 101, 113, 117, 101, 110, 116, 105, 97, 108, 95, 49, 47, 100, 101, 110, 115, 101, 95, 49, 47, 77, 97, 116, 77, 117, 108, 59, 115, 101, 113, 117, 101, 110, 116, 105, 97, 108, 95, 49, 47, 100, 101, 110, 115, 101, 95, 49, 47, 82, 101, 108, 117, 59, 115, 101, 113, 117, 101, 110, 116, 105, 97, 108, 95, 49, 47, 100, 101, 110, 115, 101, 95, 49, 47, 66, 105, 97, 115, 65, 100, 100, 0, 0, 2, 0, 0, 0, 1, 0, 0, 0, 16, 0, 0, 0, 0, 0, 22, 0, 32, 0, 28, 0, 27, 0, 20, 0, 16, 0, 12, 0, 0, 0, 0, 0, 8, 0, 7, 0, 22, 0, 0, 0, 0, 0, 0, 1, 24, 0, 0, 0, 32, 0, 0, 0, 64, 0, 0, 0, 8, 0, 0, 0, 0, 0, 0, 9, 72, 0, 0, 0, 2, 0, 0, 0, 255, 255, 255, 255, 1, 0, 0, 0, 212, 250, 255, 255, 8, 0, 0, 0, 20, 0, 0, 0, 1, 0, 0, 0, 128, 255, 255, 255, 255, 255, 255, 255, 0, 0, 0, 0, 1, 0, 0, 0, 93, 79, 201, 60, 12, 0, 0, 0, 116, 102, 108, 46, 113, 117, 97, 110, 116, 105, 122, 101, 0, 0, 0, 0, 2, 0, 0, 0, 1, 0, 0, 0, 1, 0, 0, 0, 74, 251, 255, 255, 0, 0, 0, 1, 20, 0, 0, 0, 232, 0, 0, 0, 7, 0, 0, 0, 0, 0, 0, 9, 244, 0, 0, 0, 52, 251, 255, 255, 8, 0, 0, 0, 140, 0, 0, 0, 16, 0, 0, 0, 0, 0, 0, 0, 0, 0, 0, 0, 0, 0, 0, 0, 0, 0, 0, 0, 0, 0, 0, 0, 0, 0, 0, 0, 0, 0, 0, 0, 0, 0, 0, 0, 0, 0, 0, 0, 0, 0, 0, 0, 0, 0, 0, 0, 0, 0, 0, 0, 0, 0, 0, 0, 0, 0, 0, 0, 0, 0, 0, 0, 0, 0, 0, 0, 0, 0, 0, 0, 0, 0, 0, 0, 0, 0, 0, 0, 0, 0, 0, 0, 0, 0, 0, 0, 0, 0, 0, 0, 0, 0, 0, 0, 0, 0, 0, 0, 0, 0, 0, 0, 0, 0, 0, 0, 0, 0, 0, 0, 0, 0, 0, 0, 0, 0, 0, 0, 0, 0, 0, 0, 0, 0, 0, 0, 0, 0, 0, 0, 0, 0, 0, 0, 16, 0, 0, 0, 167, 255, 69, 58, 223, 72, 125, 59, 93, 49, 118, 59, 239, 177, 12, 59, 155, 149, 128, 57, 212, 158, 153, 58, 58, 157, 166, 54, 101, 202, 132, 59, 152, 47, 109, 59, 8, 142, 135, 59, 216, 27, 224, 57, 171, 200, 45, 59, 133, 88, 53, 59, 216, 183, 25, 58, 214, 52, 72, 59, 162, 120, 32, 59, 18, 0, 0, 0, 116, 102, 108, 46, 112, 115, 101, 117, 100, 111, 95, 113, 99, 111, 110, 115, 116, 53, 0, 0, 2, 0, 0, 0, 16, 0, 0, 0, 1, 0, 0, 0, 98, 252, 255, 255, 0, 0, 0, 1, 20, 0, 0, 0, 228, 0, 0, 0, 6, 0, 0, 0, 0, 0, 0, 2, 240, 0, 0, 0, 76, 252, 255, 255, 8, 0, 0, 0, 136, 0, 0, 0, 16, 0, 0, 0, 0, 0, 0, 0, 0, 0, 0, 0, 0, 0, 0, 0, 0, 0, 0, 0, 0, 0, 0, 0, 0, 0, 0, 0, 0, 0, 0, 0, 0, 0, 0, 0, 0, 0, 0, 0, 0, 0, 0, 0, 0, 0, 0, 0, 0, 0, 0, 0, 0, 0, 0, 0, 0, 0, 0, 0, 0, 0, 0, 0, 0, 0, 0, 0, 0, 0, 0, 0, 0, 0, 0, 0, 0, 0, 0, 0, 0, 0, 0, 0, 0, 0, 0, 0, 0, 0, 0, 0, 0, 0, 0, 0, 0, 0, 0, 0, 0, 0, 0, 0, 0, 0, 0, 0, 0, 0, 0, 0, 0, 0, 0, 0, 0, 0, 0, 0, 0, 0, 0, 0, 0, 0, 0, 0, 0, 0, 0, 0, 16, 0, 0, 0, 28, 179, 155, 55, 189, 44, 199, 56, 21, 153, 193, 56, 165, 70, 93, 56, 167, 58, 202, 54, 169, 154, 241, 55, 26, 5, 3, 52, 40, 216, 208, 56, 230, 131, 186, 56, 21, 49, 213, 56, 87, 59, 48, 55, 110, 168, 136, 56, 185, 154, 142, 56, 0, 194, 113, 55, 141, 111, 157, 56, 237, 96, 124, 56, 18, 0, 0, 0, 116, 102, 108, 46, 112, 115, 101, 117, 100, 111, 95, 113, 99, 111, 110, 115, 116, 52, 0, 0, 1, 0, 0, 0, 16, 0, 0, 0, 114, 253, 255, 255, 0, 0, 0, 1, 20, 0, 0, 0, 232, 0, 0, 0, 5, 0, 0, 0, 0, 0, 0, 9, 244, 0, 0, 0, 92, 253, 255, 255, 8, 0, 0, 0, 140, 0, 0, 0, 16, 0, 0, 0, 0, 0, 0, 0, 0, 0, 0, 0, 0, 0, 0, 0, 0, 0, 0, 0, 0, 0, 0, 0, 0, 0, 0, 0, 0, 0, 0, 0, 0, 0, 0, 0, 0, 0, 0, 0, 0, 0, 0, 0, 0, 0, 0, 0, 0, 0, 0, 0, 0, 0, 0, 0, 0, 0, 0, 0, 0, 0, 0, 0, 0, 0, 0, 0, 0, 0, 0, 0, 0, 0, 0, 0, 0, 0, 0, 0, 0, 0, 0, 0, 0, 0, 0, 0, 0, 0, 0, 0, 0, 0, 0, 0, 0, 0, 0, 0, 0, 0, 0, 0, 0, 0, 0, 0, 0, 0, 0, 0, 0, 0, 0, 0, 0, 0, 0, 0, 0, 0, 0, 0, 0, 0, 0, 0, 0, 0, 0, 0, 0, 0, 0, 0, 16, 0, 0, 0, 152, 43, 153, 59, 199, 130, 91, 59, 93, 167, 99, 59, 11, 43, 157, 59, 202, 164, 173, 59, 2, 244, 175, 59, 181, 161, 139, 59, 72, 211, 83, 59, 99, 232, 153, 59, 59, 122, 167, 59, 249, 38, 232, 59, 243, 252, 101, 59, 233, 163, 86, 59, 13, 73, 82, 59, 52, 87, 131, 59, 241, 252, 93, 59, 18, 0, 0, 0, 116, 102, 108, 46, 112, 115, 101, 117, 100, 111, 95, 113, 99, 111, 110, 115, 116, 51, 0, 0, 2, 0, 0, 0, 16, 0, 0, 0, 16, 0, 0, 0, 138, 254, 255, 255, 0, 0, 0, 1, 20, 0, 0, 0, 228, 0, 0, 0, 4, 0, 0, 0, 0, 0, 0, 2, 240, 0, 0, 0, 116, 254, 255, 255, 8, 0, 0, 0, 136, 0, 0, 0, 16, 0, 0, 0, 0, 0, 0, 0, 0, 0, 0, 0, 0, 0, 0, 0, 0, 0, 0, 0, 0, 0, 0, 0, 0, 0, 0, 0, 0, 0, 0, 0, 0, 0, 0, 0, 0, 0, 0, 0, 0, 0, 0, 0, 0, 0, 0, 0, 0, 0, 0, 0, 0, 0, 0, 0, 0, 0, 0, 0, 0, 0, 0, 0, 0, 0, 0, 0, 0, 0, 0, 0, 0, 0, 0, 0, 0, 0, 0, 0, 0, 0, 0, 0, 0, 0, 0, 0, 0, 0, 0, 0, 0, 0, 0, 0, 0, 0, 0, 0, 0, 0, 0, 0, 0, 0, 0, 0, 0, 0, 0, 0, 0, 0, 0, 0, 0, 0, 0, 0, 0, 0, 0, 0, 0, 0, 0, 0, 0, 0, 0, 0, 16, 0, 0, 0, 43, 154, 127, 56, 99, 39, 55, 56, 182, 242, 61, 56, 5, 35, 131, 56, 50, 226, 144, 56, 126, 207, 146, 56, 124, 2, 105, 56, 195, 189, 48, 56, 155, 106, 128, 56, 22, 189, 139, 56, 149, 179, 193, 56, 82, 229, 63, 56, 9, 23, 51, 56, 212, 116, 47, 56, 145, 44, 91, 56, 132, 56, 57, 56, 18, 0, 0, 0, 116, 102, 108, 46, 112, 115, 101, 117, 100, 111, 95, 113, 99, 111, 110, 115, 116, 50, 0, 0, 1, 0, 0, 0, 16, 0, 0, 0, 154, 255, 255, 255, 0, 0, 0, 1, 20, 0, 0, 0, 52, 0, 0, 0, 3, 0, 0, 0, 0, 0, 0, 9, 64, 0, 0, 0, 132, 255, 255, 255, 8, 0, 0, 0, 20, 0, 0, 0, 1, 0, 0, 0, 0, 0, 0, 0, 0, 0, 0, 0, 0, 0, 0, 0, 1, 0, 0, 0, 187, 152, 63, 60, 18, 0, 0, 0, 116, 102, 108, 46, 112, 115, 101, 117, 100, 111, 95, 113, 99, 111, 110, 115, 116, 49, 0, 0, 2, 0, 0, 0, 1, 0, 0, 0, 16, 0, 0, 0, 0, 0, 22, 0, 28, 0, 24, 0, 23, 0, 16, 0, 12, 0, 8, 0, 0, 0, 0, 0, 0, 0, 7, 0, 22, 0, 0, 0, 0, 0, 0, 1, 32, 0, 0, 0, 64, 0, 0, 0, 2, 0, 0, 0, 0, 0, 0, 2, 76, 0, 0, 0, 12, 0, 12, 0, 0, 0, 0, 0, 8, 0, 4, 0, 12, 0, 0, 0, 8, 0, 0, 0, 20, 0, 0, 0, 1, 0, 0, 0, 0, 0, 0, 0, 0, 0, 0, 0, 0, 0, 0, 0, 1, 0, 0, 0, 34, 141, 180, 56, 17, 0, 0, 0, 116, 102, 108, 46, 112, 115, 101, 117, 100, 111, 95, 113, 99, 111, 110, 115, 116, 0, 0, 0, 1, 0, 0, 0, 1, 0, 0, 0, 0, 0, 22, 0, 28, 0, 24, 0, 0, 0, 20, 0, 16, 0, 12, 0, 0, 0, 0, 0, 8, 0, 7, 0, 22, 0, 0, 0, 0, 0, 0, 1, 20, 0, 0, 0, 32, 0, 0, 0, 32, 0, 0, 0, 1, 0, 0, 0, 60, 0, 0, 0, 2, 0, 0, 0, 255, 255, 255, 255, 1, 0, 0, 0, 4, 0, 4, 0, 4, 0, 0, 0, 30, 0, 0, 0, 115, 101, 114, 118, 105, 110, 103, 95, 100, 101, 102, 97, 117, 108, 116, 95, 107, 101, 114, 97, 115, 95, 116, 101, 110, 115, 111, 114, 58, 48, 0, 0, 2, 0, 0, 0, 1, 0, 0, 0, 1, 0, 0, 0, 3, 0, 0, 0, 68, 0, 0, 0, 36, 0, 0, 0, 4, 0, 0, 0, 240, 255, 255, 255, 6, 0, 0, 0, 2, 0, 0, 0, 0, 0, 0, 6, 12, 0, 16, 0, 15, 0, 0, 0, 8, 0, 4, 0, 12, 0, 0, 0, 9, 0, 0, 0, 4, 0, 0, 0, 0, 0, 0, 9, 12, 0, 12, 0, 11, 0, 0, 0, 0, 0, 4, 0, 12, 0, 0, 0, 114, 0, 0, 0, 0, 0, 0, 114 };
const unsigned int g_model_len = 3696;